unsigned char gas_leakage_model_tflite[] = {
  0x1c, 0x00, 0x00, 0x00, 0x54, 0x46, 0x4c, 0x33, 0x14, 0x00, 0x20, 0x00,
  0x1c, 0x00, 0x18, 0x00, 0x14, 0x00, 0x10, 0x00, 0x0c, 0x00, 0x00, 0x00,
  0x08, 0x00, 0x04, 0x00, 0x14, 0x00, 0x00, 0x00, 0x1c, 0x00, 0x00, 0x00,
  0x98, 0x00, 0x00, 0x00, 0xf0, 0x00, 0x00, 0x00, 0x14, 0x05, 0x00, 0x00,
  0x24, 0x05, 0x00, 0x00, 0x0c, 0x0a, 0x00, 0x00, 0x03, 0x00, 0x00, 0x00,
  0x01, 0x00, 0x00, 0x00, 0x10, 0x00, 0x00, 0x00, 0x00, 0x00, 0x0a, 0x00,
  0x10, 0x00, 0x0c, 0x00, 0x08, 0x00, 0x04, 0x00, 0x0a, 0x00, 0x00, 0x00,
  0x0c, 0x00, 0x00, 0x00, 0x1c, 0x00, 0x00, 0x00, 0x3c, 0x00, 0x00, 0x00,
  0x0f, 0x00, 0x00, 0x00, 0x73, 0x65, 0x72, 0x76, 0x69, 0x6e, 0x67, 0x5f,
  0x64, 0x65, 0x66, 0x61, 0x75, 0x6c, 0x74, 0x00, 0x01, 0x00, 0x00, 0x00,
  0x04, 0x00, 0x00, 0x00, 0x90, 0xff, 0xff, 0xff, 0x09, 0x00, 0x00, 0x00,
  0x04, 0x00, 0x00, 0x00, 0x08, 0x00, 0x00, 0x00, 0x6f, 0x75, 0x74, 0x70,
  0x75, 0x74, 0x5f, 0x30, 0x00, 0x00, 0x00, 0x00, 0x01, 0x00, 0x00, 0x00,
  0x04, 0x00, 0x00, 0x00, 0x9a, 0xfb, 0xff, 0xff, 0x04, 0x00, 0x00, 0x00,
  0x0c, 0x00, 0x00, 0x00, 0x6b, 0x65, 0x72, 0x61, 0x73, 0x5f, 0x74, 0x65,
  0x6e, 0x73, 0x6f, 0x72, 0x00, 0x00, 0x00, 0x00, 0x02, 0x00, 0x00, 0x00,
  0x34, 0x00, 0x00, 0x00, 0x04, 0x00, 0x00, 0x00, 0xdc, 0xff, 0xff, 0xff,
  0x0c, 0x00, 0x00, 0x00, 0x04, 0x00, 0x00, 0x00, 0x13, 0x00, 0x00, 0x00,
  0x43, 0x4f, 0x4e, 0x56, 0x45, 0x52, 0x53, 0x49, 0x4f, 0x4e, 0x5f, 0x4d,
  0x45, 0x54, 0x41, 0x44, 0x41, 0x54, 0x41, 0x00, 0x08, 0x00, 0x0c, 0x00,
  0x08, 0x00, 0x04, 0x00, 0x08, 0x00, 0x00, 0x00, 0x0b, 0x00, 0x00, 0x00,
  0x04, 0x00, 0x00, 0x00, 0x13, 0x00, 0x00, 0x00, 0x6d, 0x69, 0x6e, 0x5f,
  0x72, 0x75, 0x6e, 0x74, 0x69, 0x6d, 0x65, 0x5f, 0x76, 0x65, 0x72, 0x73,
  0x69, 0x6f, 0x6e, 0x00, 0x0d, 0x00, 0x00, 0x00, 0x20, 0x04, 0x00, 0x00,
  0x18, 0x04, 0x00, 0x00, 0xe8, 0x03, 0x00, 0x00, 0xd0, 0x01, 0x00, 0x00,
  0xbc, 0x01, 0x00, 0x00, 0x8c, 0x01, 0x00, 0x00, 0x3c, 0x01, 0x00, 0x00,
  0xac, 0x00, 0x00, 0x00, 0xa4, 0x00, 0x00, 0x00, 0x9c, 0x00, 0x00, 0x00,
  0x94, 0x00, 0x00, 0x00, 0x74, 0x00, 0x00, 0x00, 0x04, 0x00, 0x00, 0x00,
  0x4a, 0xfc, 0xff, 0xff, 0x04, 0x00, 0x00, 0x00, 0x60, 0x00, 0x00, 0x00,
  0x10, 0x00, 0x00, 0x00, 0x00, 0x00, 0x00, 0x00, 0x08, 0x00, 0x0e, 0x00,
  0x08, 0x00, 0x04, 0x00, 0x08, 0x00, 0x00, 0x00, 0x10, 0x00, 0x00, 0x00,
  0x24, 0x00, 0x00, 0x00, 0x00, 0x00, 0x06, 0x00, 0x08, 0x00, 0x04, 0x00,
  0x06, 0x00, 0x00, 0x00, 0x04, 0x00, 0x00, 0x00, 0x00, 0x00, 0x00, 0x00,
  0x0c, 0x00, 0x18, 0x00, 0x14, 0x00, 0x10, 0x00, 0x0c, 0x00, 0x04, 0x00,
  0x0c, 0x00, 0x00, 0x00, 0xf1, 0x79, 0x4d, 0x42, 0x23, 0xe5, 0x59, 0xe8,
  0x02, 0x00, 0x00, 0x00, 0x02, 0x00, 0x00, 0x00, 0x04, 0x00, 0x00, 0x00,
  0x06, 0x00, 0x00, 0x00, 0x32, 0x2e, 0x31, 0x38, 0x2e, 0x30, 0x00, 0x00,
  0xb6, 0xfc, 0xff, 0xff, 0x04, 0x00, 0x00, 0x00, 0x10, 0x00, 0x00, 0x00,
  0x31, 0x2e, 0x35, 0x2e, 0x30, 0x00, 0x00, 0x00, 0x00, 0x00, 0x00, 0x00,
  0x00, 0x00, 0x00, 0x00, 0xd0, 0xf7, 0xff, 0xff, 0xd4, 0xf7, 0xff, 0xff,
  0xd8, 0xf7, 0xff, 0xff, 0xde, 0xfc, 0xff, 0xff, 0x04, 0x00, 0x00, 0x00,
  0x80, 0x00, 0x00, 0x00, 0x65, 0x6a, 0x96, 0x3e, 0x0a, 0x4c, 0xa5, 0xbe,
  0xe1, 0xe7, 0x0d, 0xbf, 0x8e, 0x74, 0x1c, 0xbe, 0x16, 0x2e, 0x18, 0x3f,
  0x48, 0xa3, 0x7e, 0x3f, 0x87, 0x9c, 0xc8, 0x3f, 0xdf, 0xe3, 0x87, 0x3f,
  0xb9, 0x03, 0x03, 0x40, 0x86, 0x0b, 0xb4, 0x3f, 0xa2, 0xae, 0x17, 0xbe,
  0x14, 0x36, 0x04, 0xbe, 0xbe, 0xa0, 0xc6, 0x3f, 0x0c, 0xac, 0x06, 0x3f,
  0xea, 0x5a, 0xe2, 0xbe, 0x44, 0x70, 0x1e, 0x3e, 0x95, 0x3c, 0x71, 0x40,
  0xf7, 0x36, 0x84, 0x40, 0x2a, 0xbd, 0x85, 0x40, 0x5f, 0x11, 0x74, 0x40,
  0x1b, 0x15, 0x06, 0xbf, 0x58, 0x12, 0xc8, 0x3d, 0x59, 0x50, 0x4d, 0xbd,
  0x6e, 0x94, 0x6e, 0x3d, 0xb6, 0x52, 0x09, 0xbf, 0x76, 0xab, 0x38, 0xbe,
  0x3f, 0x94, 0x50, 0x40, 0x5f, 0x44, 0x3f, 0x40, 0x43, 0xa2, 0xef, 0xbe,
  0x4c, 0xe9, 0x91, 0xbe, 0xb9, 0xd5, 0x31, 0x40, 0xa4, 0xd4, 0x60, 0x40,
  0x6a, 0xfd, 0xff, 0xff, 0x04, 0x00, 0x00, 0x00, 0x40, 0x00, 0x00, 0x00,
  0x94, 0x4b, 0x51, 0xbb, 0x00, 0x00, 0x00, 0x00, 0x4c, 0x40, 0x8a, 0x3f,
  0x8b, 0xe9, 0xd9, 0x3e, 0xdd, 0xfe, 0x15, 0x3e, 0x00, 0x00, 0x00, 0x00,
  0xd0, 0xd9, 0x25, 0x3f, 0x00, 0x00, 0x00, 0x00, 0x83, 0x3c, 0x34, 0xbf,
  0xa0, 0x73, 0x39, 0xbf, 0x00, 0x00, 0x00, 0x00, 0xdd, 0xdc, 0x0d, 0xbd,
  0x00, 0x00, 0x00, 0x00, 0x86, 0xca, 0xed, 0xbe, 0x00, 0x00, 0x00, 0x00,
  0x64, 0x7a, 0x06, 0xbf, 0xb6, 0xfd, 0xff, 0xff, 0x04, 0x00, 0x00, 0x00,
  0x20, 0x00, 0x00, 0x00, 0x3e, 0xce, 0x89, 0xbe, 0x4b, 0xe4, 0x53, 0xbe,
  0x20, 0xcc, 0x10, 0xbe, 0xde, 0xfe, 0xb2, 0x3f, 0xe3, 0xbe, 0x2c, 0xc0,
  0x30, 0xe6, 0x70, 0xc0, 0x03, 0xdc, 0x48, 0xbe, 0x00, 0x00, 0x00, 0x00,
  0xe2, 0xfd, 0xff, 0xff, 0x04, 0x00, 0x00, 0x00, 0x04, 0x00, 0x00, 0x00,
  0x60, 0xc9, 0xbe, 0xbe, 0xf2, 0xfd, 0xff, 0xff, 0x04, 0x00, 0x00, 0x00,
  0x00, 0x02, 0x00, 0x00, 0x22, 0x24, 0xa9, 0x3e, 0xc0, 0x86, 0xa1, 0x3d,
  0x0d, 0x95, 0x2b, 0x3f, 0x03, 0xdb, 0xaa, 0x3f, 0xc2, 0xf1, 0x9f, 0x3f,
  0x90, 0x59, 0x06, 0xbe, 0x9b, 0x8f, 0x90, 0x3f, 0x20, 0xdb, 0xb6, 0x3d,
  0xf3, 0x50, 0xe8, 0x3f, 0x41, 0xa1, 0x08, 0x40, 0x84, 0x3d, 0x90, 0x3e,
  0xae, 0xb8, 0x70, 0xbe, 0x20, 0xcd, 0x39, 0x3e, 0x3b, 0xe9, 0x06, 0x40,
  0x60, 0x83, 0x9b, 0x3d, 0x71, 0xf0, 0x0c, 0x40, 0x6e, 0x66, 0x97, 0x3e,
  0xb4, 0xa2, 0xa3, 0x3e, 0x96, 0xda, 0xb1, 0x3e, 0x68, 0x08, 0x61, 0x3f,
  0x60, 0xdc, 0xa8, 0x3f, 0x2c, 0x1e, 0xee, 0x3e, 0xca, 0x3a, 0x8a, 0x3f,
  0x80, 0xb9, 0x83, 0xbc, 0xe4, 0x89, 0x1f, 0x40, 0xc0, 0x1f, 0x00, 0x40,
  0x20, 0xff, 0x85, 0x3e, 0x93, 0xe0, 0x37, 0x3e, 0xd8, 0xdb, 0x81, 0x3e,
  0x87, 0x6d, 0xda, 0x3f, 0xa8, 0x41, 0x4d, 0xbe, 0xc5, 0x6d, 0x03, 0x40,
  0x36, 0xd6, 0x33, 0x3e, 0xf0, 0x51, 0x45, 0xbe, 0x48, 0xd8, 0x83, 0x3f,
  0xd6, 0xdc, 0x1a, 0x3f, 0x60, 0xb8, 0x8e, 0x3f, 0x04, 0xc1, 0x95, 0xbe,
  0xac, 0x7c, 0x3f, 0x3f, 0x68, 0x47, 0xb8, 0xbe, 0x9b, 0x52, 0x12, 0x40,
  0x0f, 0x64, 0x19, 0x40, 0x44, 0x2c, 0xfb, 0xbe, 0xb4, 0x88, 0x3e, 0x3e,
  0x00, 0x31, 0x73, 0x3e, 0x7b, 0x9b, 0x05, 0x40, 0xb4, 0xbc, 0xb4, 0x3e,
  0xb3, 0xbb, 0x16, 0x40, 0xd4, 0xd4, 0x95, 0xbe, 0xd8, 0x23, 0x4e, 0x3e,
  0x54, 0x80, 0xb2, 0x3f, 0x52, 0xa4, 0xe3, 0x3e, 0x2e, 0xca, 0x54, 0x3e,
  0x40, 0x32, 0x33, 0x3d, 0x57, 0x10, 0x6f, 0x3f, 0x1c, 0xdb, 0xdb, 0xbe,
  0x84, 0x9e, 0xde, 0xbf, 0x54, 0x58, 0xc7, 0xbf, 0x00, 0x9c, 0x63, 0x3b,
  0x28, 0xbd, 0x80, 0x3e, 0x90, 0x5e, 0x9a, 0x3d, 0x15, 0x92, 0x9c, 0xbf,
  0x20, 0x26, 0x01, 0xbe, 0xf1, 0x2f, 0x98, 0xbf, 0xa4, 0xde, 0x86, 0x3e,
  0x00, 0x89, 0xc8, 0x3d, 0x04, 0x9b, 0x40, 0xbf, 0xa9, 0x2c, 0x14, 0xbf,
  0x61, 0xb2, 0x85, 0xbe, 0x24, 0x04, 0xff, 0xbe, 0x35, 0x03, 0xff, 0xbe,
  0x68, 0x70, 0x3f, 0xbe, 0x3e, 0x7b, 0x90, 0x3f, 0xf2, 0xad, 0xe2, 0x3f,
  0x28, 0x08, 0xff, 0x3e, 0x62, 0x2f, 0x01, 0xbf, 0x9c, 0x38, 0xe7, 0x3e,
  0x10, 0xcf, 0x25, 0x3f, 0x20, 0xb9, 0xc4, 0xbd, 0x27, 0x92, 0x8f, 0x3f,
  0x1a, 0x89, 0x8f, 0x3e, 0x68, 0x0e, 0x30, 0x3e, 0xae, 0xed, 0x9b, 0xbf,
  0x9d, 0x05, 0x94, 0xbe, 0x96, 0xb8, 0x07, 0x3d, 0x58, 0xa4, 0x79, 0xbe,
  0xfc, 0x5f, 0x60, 0xbf, 0x2c, 0x2a, 0xfe, 0xbe, 0x2d, 0xdb, 0xde, 0x3f,
  0xe2, 0x2c, 0xf4, 0x3f, 0x50, 0xa7, 0xa1, 0x3d, 0x20, 0x36, 0x92, 0x3e,
  0xd8, 0x1d, 0x89, 0x3e, 0x42, 0x56, 0x69, 0x3f, 0x60, 0xfa, 0x2f, 0x3d,
  0x4f, 0x66, 0x86, 0x3f, 0xaa, 0x9d, 0x7b, 0xbe, 0xa8, 0xae, 0xad, 0x3e,
  0xa0, 0x1b, 0x42, 0x3f, 0x30, 0x9d, 0x6a, 0x3f, 0x97, 0x59, 0x4a, 0x3f,
  0xf0, 0x2b, 0x71, 0xbe, 0x52, 0x9c, 0x93, 0x3f, 0xc8, 0xcc, 0x49, 0x3e,
  0xd7, 0x9b, 0xea, 0x3f, 0x90, 0x85, 0x10, 0x40, 0xa4, 0x01, 0xf9, 0x3e,
  0x74, 0xb3, 0x6c, 0x3e, 0x10, 0x06, 0xc8, 0xbe, 0x06, 0xd8, 0xa8, 0x3f,
  0xa4, 0xc2, 0xa2, 0x3e, 0x6e, 0x2f, 0xda, 0x3f, 0xdc, 0xe8, 0xf0, 0x3e,
  0x70, 0x58, 0x08, 0x3e, 0x90, 0xd1, 0xf0, 0xbd, 0x60, 0xd3, 0x90, 0xbe,
  0xdc, 0x4f, 0xcc, 0xbe, 0x44, 0xce, 0x91, 0x3e, 0x74, 0xd4, 0x8f, 0x3e,
  0x7c, 0x45, 0xe0, 0xbe, 0xac, 0x5f, 0x9b, 0xbe, 0x88, 0xa5, 0xff, 0xbe,
  0x7c, 0x75, 0xef, 0x3e, 0xd8, 0x29, 0x36, 0xbe, 0xf8, 0x7c, 0xef, 0xbe,
  0xf8, 0x92, 0xc8, 0x3e, 0xa0, 0xb4, 0x7a, 0x3e, 0xc0, 0xb2, 0x02, 0xbd,
  0x00, 0x00, 0x06, 0x00, 0x08, 0x00, 0x04, 0x00, 0x06, 0x00, 0x00, 0x00,
  0x04, 0x00, 0x00, 0x00, 0x20, 0x00, 0x00, 0x00, 0x34, 0x33, 0xd3, 0x3f,
  0x4c, 0xe5, 0xcc, 0x3f, 0x1e, 0x54, 0xbd, 0x3f, 0x50, 0x18, 0x31, 0xc0,
  0xbe, 0x67, 0xb5, 0xc0, 0xc7, 0xb6, 0xe4, 0xc0, 0x41, 0xa1, 0xe9, 0x3f,
  0x8c, 0xc4, 0x20, 0xbf, 0x30, 0xfb, 0xff, 0xff, 0x34, 0xfb, 0xff, 0xff,
  0x0f, 0x00, 0x00, 0x00, 0x4d, 0x4c, 0x49, 0x52, 0x20, 0x43, 0x6f, 0x6e,
  0x76, 0x65, 0x72, 0x74, 0x65, 0x64, 0x2e, 0x00, 0x01, 0x00, 0x00, 0x00,
  0x14, 0x00, 0x00, 0x00, 0x00, 0x00, 0x0e, 0x00, 0x18, 0x00, 0x14, 0x00,
  0x10, 0x00, 0x0c, 0x00, 0x08, 0x00, 0x04, 0x00, 0x0e, 0x00, 0x00, 0x00,
  0x14, 0x00, 0x00, 0x00, 0x1c, 0x00, 0x00, 0x00, 0xd8, 0x00, 0x00, 0x00,
  0xdc, 0x00, 0x00, 0x00, 0xe0, 0x00, 0x00, 0x00, 0x04, 0x00, 0x00, 0x00,
  0x6d, 0x61, 0x69, 0x6e, 0x00, 0x00, 0x00, 0x00, 0x03, 0x00, 0x00, 0x00,
  0x80, 0x00, 0x00, 0x00, 0x38, 0x00, 0x00, 0x00, 0x04, 0x00, 0x00, 0x00,
  0x9a, 0xff, 0xff, 0xff, 0x10, 0x00, 0x00, 0x00, 0x00, 0x00, 0x00, 0x08,
  0x0c, 0x00, 0x00, 0x00, 0x10, 0x00, 0x00, 0x00, 0xac, 0xfb, 0xff, 0xff,
  0x01, 0x00, 0x00, 0x00, 0x09, 0x00, 0x00, 0x00, 0x03, 0x00, 0x00, 0x00,
  0x08, 0x00, 0x00, 0x00, 0x01, 0x00, 0x00, 0x00, 0x03, 0x00, 0x00, 0x00,
  0xca, 0xff, 0xff, 0xff, 0x10, 0x00, 0x00, 0x00, 0x00, 0x00, 0x00, 0x08,
  0x10, 0x00, 0x00, 0x00, 0x14, 0x00, 0x00, 0x00, 0xba, 0xff, 0xff, 0xff,
  0x00, 0x00, 0x00, 0x01, 0x01, 0x00, 0x00, 0x00, 0x08, 0x00, 0x00, 0x00,
  0x03, 0x00, 0x00, 0x00, 0x07, 0x00, 0x00, 0x00, 0x02, 0x00, 0x00, 0x00,
  0x04, 0x00, 0x00, 0x00, 0x00, 0x00, 0x0e, 0x00, 0x16, 0x00, 0x00, 0x00,
  0x10, 0x00, 0x0c, 0x00, 0x0b, 0x00, 0x04, 0x00, 0x0e, 0x00, 0x00, 0x00,
  0x18, 0x00, 0x00, 0x00, 0x00, 0x00, 0x00, 0x08, 0x18, 0x00, 0x00, 0x00,
  0x1c, 0x00, 0x00, 0x00, 0x00, 0x00, 0x06, 0x00, 0x08, 0x00, 0x07, 0x00,
  0x06, 0x00, 0x00, 0x00, 0x00, 0x00, 0x00, 0x01, 0x01, 0x00, 0x00, 0x00,
  0x07, 0x00, 0x00, 0x00, 0x03, 0x00, 0x00, 0x00, 0x00, 0x00, 0x00, 0x00,
  0x06, 0x00, 0x00, 0x00, 0x05, 0x00, 0x00, 0x00, 0x01, 0x00, 0x00, 0x00,
  0x09, 0x00, 0x00, 0x00, 0x01, 0x00, 0x00, 0x00, 0x00, 0x00, 0x00, 0x00,
  0x0a, 0x00, 0x00, 0x00, 0x7c, 0x03, 0x00, 0x00, 0x24, 0x03, 0x00, 0x00,
  0xcc, 0x02, 0x00, 0x00, 0x90, 0x02, 0x00, 0x00, 0x34, 0x02, 0x00, 0x00,
  0xdc, 0x01, 0x00, 0x00, 0x90, 0x01, 0x00, 0x00, 0xfc, 0x00, 0x00, 0x00,
  0x60, 0x00, 0x00, 0x00, 0x04, 0x00, 0x00, 0x00, 0xc2, 0xfc, 0xff, 0xff,
  0x00, 0x00, 0x00, 0x01, 0x14, 0x00, 0x00, 0x00, 0x1c, 0x00, 0x00, 0x00,
  0x1c, 0x00, 0x00, 0x00, 0x0a, 0x00, 0x00, 0x00, 0x34, 0x00, 0x00, 0x00,
  0x02, 0x00, 0x00, 0x00, 0xff, 0xff, 0xff, 0xff, 0x01, 0x00, 0x00, 0x00,
  0xac, 0xfc, 0xff, 0xff, 0x1b, 0x00, 0x00, 0x00, 0x53, 0x74, 0x61, 0x74,
  0x65, 0x66, 0x75, 0x6c, 0x50, 0x61, 0x72, 0x74, 0x69, 0x74, 0x69, 0x6f,
  0x6e, 0x65, 0x64, 0x43, 0x61, 0x6c, 0x6c, 0x5f, 0x31, 0x3a, 0x30, 0x00,
  0x02, 0x00, 0x00, 0x00, 0x01, 0x00, 0x00, 0x00, 0x01, 0x00, 0x00, 0x00,
  0x1a, 0xfd, 0xff, 0xff, 0x00, 0x00, 0x00, 0x01, 0x14, 0x00, 0x00, 0x00,
  0x1c, 0x00, 0x00, 0x00, 0x1c, 0x00, 0x00, 0x00, 0x09, 0x00, 0x00, 0x00,
  0x74, 0x00, 0x00, 0x00, 0x02, 0x00, 0x00, 0x00, 0xff, 0xff, 0xff, 0xff,
  0x08, 0x00, 0x00, 0x00, 0x04, 0xfd, 0xff, 0xff, 0x58, 0x00, 0x00, 0x00,
  0x73, 0x65, 0x71, 0x75, 0x65, 0x6e, 0x74, 0x69, 0x61, 0x6c, 0x5f, 0x31,
  0x2f, 0x64, 0x65, 0x6e, 0x73, 0x65, 0x5f, 0x31, 0x5f, 0x32, 0x2f, 0x4d,
  0x61, 0x74, 0x4d, 0x75, 0x6c, 0x3b, 0x73, 0x65, 0x71, 0x75, 0x65, 0x6e,
  0x74, 0x69, 0x61, 0x6c, 0x5f, 0x31, 0x2f, 0x64, 0x65, 0x6e, 0x73, 0x65,
  0x5f, 0x31, 0x5f, 0x32, 0x2f, 0x52, 0x65, 0x6c, 0x75, 0x3b, 0x73, 0x65,
  0x71, 0x75, 0x65, 0x6e, 0x74, 0x69, 0x61, 0x6c, 0x5f, 0x31, 0x2f, 0x64,
  0x65, 0x6e, 0x73, 0x65, 0x5f, 0x31, 0x5f, 0x32, 0x2f, 0x42, 0x69, 0x61,
  0x73, 0x41, 0x64, 0x64, 0x00, 0x00, 0x00, 0x00, 0x02, 0x00, 0x00, 0x00,
  0x01, 0x00, 0x00, 0x00, 0x08, 0x00, 0x00, 0x00, 0xb2, 0xfd, 0xff, 0xff,
  0x00, 0x00, 0x00, 0x01, 0x14, 0x00, 0x00, 0x00, 0x1c, 0x00, 0x00, 0x00,
  0x1c, 0x00, 0x00, 0x00, 0x08, 0x00, 0x00, 0x00, 0x6c, 0x00, 0x00, 0x00,
  0x02, 0x00, 0x00, 0x00, 0xff, 0xff, 0xff, 0xff, 0x10, 0x00, 0x00, 0x00,
  0x9c, 0xfd, 0xff, 0xff, 0x52, 0x00, 0x00, 0x00, 0x73, 0x65, 0x71, 0x75,
  0x65, 0x6e, 0x74, 0x69, 0x61, 0x6c, 0x5f, 0x31, 0x2f, 0x64, 0x65, 0x6e,
  0x73, 0x65, 0x5f, 0x31, 0x2f, 0x4d, 0x61, 0x74, 0x4d, 0x75, 0x6c, 0x3b,
  0x73, 0x65, 0x71, 0x75, 0x65, 0x6e, 0x74, 0x69, 0x61, 0x6c, 0x5f, 0x31,
  0x2f, 0x64, 0x65, 0x6e, 0x73, 0x65, 0x5f, 0x31, 0x2f, 0x52, 0x65, 0x6c,
  0x75, 0x3b, 0x73, 0x65, 0x71, 0x75, 0x65, 0x6e, 0x74, 0x69, 0x61, 0x6c,
  0x5f, 0x31, 0x2f, 0x64, 0x65, 0x6e, 0x73, 0x65, 0x5f, 0x31, 0x2f, 0x42,
  0x69, 0x61, 0x73, 0x41, 0x64, 0x64, 0x00, 0x00, 0x02, 0x00, 0x00, 0x00,
  0x01, 0x00, 0x00, 0x00, 0x10, 0x00, 0x00, 0x00, 0x96, 0xfe, 0xff, 0xff,
  0x00, 0x00, 0x00, 0x01, 0x10, 0x00, 0x00, 0x00, 0x10, 0x00, 0x00, 0x00,
  0x07, 0x00, 0x00, 0x00, 0x28, 0x00, 0x00, 0x00, 0x1c, 0xfe, 0xff, 0xff,
  0x1b, 0x00, 0x00, 0x00, 0x73, 0x65, 0x71, 0x75, 0x65, 0x6e, 0x74, 0x69,
  0x61, 0x6c, 0x5f, 0x31, 0x2f, 0x64, 0x65, 0x6e, 0x73, 0x65, 0x5f, 0x31,
  0x2f, 0x4d, 0x61, 0x74, 0x4d, 0x75, 0x6c, 0x00, 0x02, 0x00, 0x00, 0x00,
  0x10, 0x00, 0x00, 0x00, 0x02, 0x00, 0x00, 0x00, 0xde, 0xfe, 0xff, 0xff,
  0x00, 0x00, 0x00, 0x01, 0x10, 0x00, 0x00, 0x00, 0x10, 0x00, 0x00, 0x00,
  0x06, 0x00, 0x00, 0x00, 0x38, 0x00, 0x00, 0x00, 0x64, 0xfe, 0xff, 0xff,
  0x2b, 0x00, 0x00, 0x00, 0x73, 0x65, 0x71, 0x75, 0x65, 0x6e, 0x74, 0x69,
  0x61, 0x6c, 0x5f, 0x31, 0x2f, 0x64, 0x65, 0x6e, 0x73, 0x65, 0x5f, 0x31,
  0x2f, 0x42, 0x69, 0x61, 0x73, 0x41, 0x64, 0x64, 0x2f, 0x52, 0x65, 0x61,
  0x64, 0x56, 0x61, 0x72, 0x69, 0x61, 0x62, 0x6c, 0x65, 0x4f, 0x70, 0x00,
  0x01, 0x00, 0x00, 0x00, 0x10, 0x00, 0x00, 0x00, 0x32, 0xff, 0xff, 0xff,
  0x00, 0x00, 0x00, 0x01, 0x10, 0x00, 0x00, 0x00, 0x10, 0x00, 0x00, 0x00,
  0x05, 0x00, 0x00, 0x00, 0x3c, 0x00, 0x00, 0x00, 0xb8, 0xfe, 0xff, 0xff,
  0x2d, 0x00, 0x00, 0x00, 0x73, 0x65, 0x71, 0x75, 0x65, 0x6e, 0x74, 0x69,
  0x61, 0x6c, 0x5f, 0x31, 0x2f, 0x64, 0x65, 0x6e, 0x73, 0x65, 0x5f, 0x31,
  0x5f, 0x32, 0x2f, 0x42, 0x69, 0x61, 0x73, 0x41, 0x64, 0x64, 0x2f, 0x52,
  0x65, 0x61, 0x64, 0x56, 0x61, 0x72, 0x69, 0x61, 0x62, 0x6c, 0x65, 0x4f,
  0x70, 0x00, 0x00, 0x00, 0x01, 0x00, 0x00, 0x00, 0x08, 0x00, 0x00, 0x00,
  0x8a, 0xff, 0xff, 0xff, 0x00, 0x00, 0x00, 0x01, 0x10, 0x00, 0x00, 0x00,
  0x10, 0x00, 0x00, 0x00, 0x04, 0x00, 0x00, 0x00, 0x1c, 0x00, 0x00, 0x00,
  0x10, 0xff, 0xff, 0xff, 0x0f, 0x00, 0x00, 0x00, 0x61, 0x72, 0x69, 0x74,
  0x68, 0x2e, 0x63, 0x6f, 0x6e, 0x73, 0x74, 0x61, 0x6e, 0x74, 0x32, 0x00,
  0x01, 0x00, 0x00, 0x00, 0x01, 0x00, 0x00, 0x00, 0xc2, 0xff, 0xff, 0xff,
  0x00, 0x00, 0x00, 0x01, 0x10, 0x00, 0x00, 0x00, 0x10, 0x00, 0x00, 0x00,
  0x03, 0x00, 0x00, 0x00, 0x1c, 0x00, 0x00, 0x00, 0x48, 0xff, 0xff, 0xff,
  0x0f, 0x00, 0x00, 0x00, 0x61, 0x72, 0x69, 0x74, 0x68, 0x2e, 0x63, 0x6f,
  0x6e, 0x73, 0x74, 0x61, 0x6e, 0x74, 0x31, 0x00, 0x02, 0x00, 0x00, 0x00,
  0x08, 0x00, 0x00, 0x00, 0x10, 0x00, 0x00, 0x00, 0x00, 0x00, 0x16, 0x00,
  0x18, 0x00, 0x14, 0x00, 0x00, 0x00, 0x10, 0x00, 0x0c, 0x00, 0x08, 0x00,
  0x00, 0x00, 0x00, 0x00, 0x00, 0x00, 0x07, 0x00, 0x16, 0x00, 0x00, 0x00,
  0x00, 0x00, 0x00, 0x01, 0x10, 0x00, 0x00, 0x00, 0x10, 0x00, 0x00, 0x00,
  0x02, 0x00, 0x00, 0x00, 0x1c, 0x00, 0x00, 0x00, 0x9c, 0xff, 0xff, 0xff,
  0x0e, 0x00, 0x00, 0x00, 0x61, 0x72, 0x69, 0x74, 0x68, 0x2e, 0x63, 0x6f,
  0x6e, 0x73, 0x74, 0x61, 0x6e, 0x74, 0x00, 0x00, 0x02, 0x00, 0x00, 0x00,
  0x01, 0x00, 0x00, 0x00, 0x08, 0x00, 0x00, 0x00, 0x00, 0x00, 0x16, 0x00,
  0x1c, 0x00, 0x18, 0x00, 0x00, 0x00, 0x14, 0x00, 0x10, 0x00, 0x0c, 0x00,
  0x00, 0x00, 0x00, 0x00, 0x08, 0x00, 0x07, 0x00, 0x16, 0x00, 0x00, 0x00,
  0x00, 0x00, 0x00, 0x01, 0x14, 0x00, 0x00, 0x00, 0x20, 0x00, 0x00, 0x00,
  0x20, 0x00, 0x00, 0x00, 0x01, 0x00, 0x00, 0x00, 0x3c, 0x00, 0x00, 0x00,
  0x02, 0x00, 0x00, 0x00, 0xff, 0xff, 0xff, 0xff, 0x02, 0x00, 0x00, 0x00,
  0x04, 0x00, 0x04, 0x00, 0x04, 0x00, 0x00, 0x00, 0x1e, 0x00, 0x00, 0x00,
  0x73, 0x65, 0x72, 0x76, 0x69, 0x6e, 0x67, 0x5f, 0x64, 0x65, 0x66, 0x61,
  0x75, 0x6c, 0x74, 0x5f, 0x6b, 0x65, 0x72, 0x61, 0x73, 0x5f, 0x74, 0x65,
  0x6e, 0x73, 0x6f, 0x72, 0x3a, 0x30, 0x00, 0x00, 0x02, 0x00, 0x00, 0x00,
  0x01, 0x00, 0x00, 0x00, 0x02, 0x00, 0x00, 0x00, 0x01, 0x00, 0x00, 0x00,
  0x10, 0x00, 0x00, 0x00, 0x0c, 0x00, 0x0c, 0x00, 0x0b, 0x00, 0x00, 0x00,
  0x00, 0x00, 0x04, 0x00, 0x0c, 0x00, 0x00, 0x00, 0x09, 0x00, 0x00, 0x00,
  0x00, 0x00, 0x00, 0x09
};
unsigned int gas_leakage_model_tflite_len = 2656;
